#ifndef UPS_AI_MODEL_H
#define UPS_AI_MODEL_H

// Model size: 4824 bytes (4.7 KB)
// Generated automatically - do not edit

// Number of input features
#define NUM_FEATURES 9

// Number of output classes
#define NUM_CLASSES 7

// Scaler mean values
const float scaler_mean[NUM_FEATURES] = {
218.663877f, 213.262872f, 12.368828f, 5.644337f, 0.739230f, 33.463557f, 50.799968f, 0.920000f, 0.160000f
};

// Scaler scale values
const float scaler_scale[NUM_FEATURES] = {
41.604685f, 35.396293f, 1.074177f, 4.128563f, 0.647635f, 10.231291f, 23.775666f, 0.271293f, 0.366606f
};

// Class names
const char* class_names[NUM_CLASSES] = {
"battery_low", "charging_fault", "mains_fail", "normal", "overload", "short_circuit", "transformer_overheat"
};

// TensorFlow Lite model data
const unsigned char ups_model_data[] = {
  0x20, 0x00, 0x00, 0x00, 0x54, 0x46, 0x4c, 0x33, 0x00, 0x00, 0x00, 0x00, 0x14, 0x00, 0x20, 0x00,
  0x1c, 0x00, 0x18, 0x00, 0x14, 0x00, 0x10, 0x00, 0x0c, 0x00, 0x00, 0x00, 0x08, 0x00, 0x04, 0x00,
  0x14, 0x00, 0x00, 0x00, 0x1c, 0x00, 0x00, 0x00, 0x98, 0x00, 0x00, 0x00, 0xf0, 0x00, 0x00, 0x00,
  0x7c, 0x06, 0x00, 0x00, 0x8c, 0x06, 0x00, 0x00, 0x68, 0x12, 0x00, 0x00, 0x03, 0x00, 0x00, 0x00,
  0x01, 0x00, 0x00, 0x00, 0x10, 0x00, 0x00, 0x00, 0x00, 0x00, 0x0a, 0x00, 0x10, 0x00, 0x0c, 0x00,
  0x08, 0x00, 0x04, 0x00, 0x0a, 0x00, 0x00, 0x00, 0x0c, 0x00, 0x00, 0x00, 0x1c, 0x00, 0x00, 0x00,
  0x3c, 0x00, 0x00, 0x00, 0x0f, 0x00, 0x00, 0x00, 0x73, 0x65, 0x72, 0x76, 0x69, 0x6e, 0x67, 0x5f,
  0x64, 0x65, 0x66, 0x61, 0x75, 0x6c, 0x74, 0x00, 0x01, 0x00, 0x00, 0x00, 0x04, 0x00, 0x00, 0x00,
  0x90, 0xff, 0xff, 0xff, 0x0a, 0x00, 0x00, 0x00, 0x04, 0x00, 0x00, 0x00, 0x08, 0x00, 0x00, 0x00,
  0x6f, 0x75, 0x74, 0x70, 0x75, 0x74, 0x5f, 0x30, 0x00, 0x00, 0x00, 0x00, 0x01, 0x00, 0x00, 0x00,
  0x04, 0x00, 0x00, 0x00, 0x6a, 0xf9, 0xff, 0xff, 0x04, 0x00, 0x00, 0x00, 0x0c, 0x00, 0x00, 0x00,
  0x6b, 0x65, 0x72, 0x61, 0x73, 0x5f, 0x74, 0x65, 0x6e, 0x73, 0x6f, 0x72, 0x00, 0x00, 0x00, 0x00,
  0x02, 0x00, 0x00, 0x00, 0x34, 0x00, 0x00, 0x00, 0x04, 0x00, 0x00, 0x00, 0xdc, 0xff, 0xff, 0xff,
  0x0d, 0x00, 0x00, 0x00, 0x04, 0x00, 0x00, 0x00, 0x13, 0x00, 0x00, 0x00, 0x43, 0x4f, 0x4e, 0x56,
  0x45, 0x52, 0x53, 0x49, 0x4f, 0x4e, 0x5f, 0x4d, 0x45, 0x54, 0x41, 0x44, 0x41, 0x54, 0x41, 0x00,
  0x08, 0x00, 0x0c, 0x00, 0x08, 0x00, 0x04, 0x00, 0x08, 0x00, 0x00, 0x00, 0x0c, 0x00, 0x00, 0x00,
  0x04, 0x00, 0x00, 0x00, 0x13, 0x00, 0x00, 0x00, 0x6d, 0x69, 0x6e, 0x5f, 0x72, 0x75, 0x6e, 0x74,
  0x69, 0x6d, 0x65, 0x5f, 0x76, 0x65, 0x72, 0x73, 0x69, 0x6f, 0x6e, 0x00, 0x0e, 0x00, 0x00, 0x00,
  0x88, 0x05, 0x00, 0x00, 0x80, 0x05, 0x00, 0x00, 0x54, 0x05, 0x00, 0x00, 0xd4, 0x04, 0x00, 0x00,
  0x84, 0x04, 0x00, 0x00, 0x74, 0x02, 0x00, 0x00, 0xe4, 0x01, 0x00, 0x00, 0xb4, 0x00, 0x00, 0x00,
  0xac, 0x00, 0x00, 0x00, 0xa4, 0x00, 0x00, 0x00, 0x9c, 0x00, 0x00, 0x00, 0x94, 0x00, 0x00, 0x00,
  0x74, 0x00, 0x00, 0x00, 0x04, 0x00, 0x00, 0x00, 0x1e, 0xfa, 0xff, 0xff, 0x04, 0x00, 0x00, 0x00,
  0x60, 0x00, 0x00, 0x00, 0x0c, 0x00, 0x00, 0x00, 0x08, 0x00, 0x0e, 0x00, 0x08, 0x00, 0x04, 0x00,
  0x08, 0x00, 0x00, 0x00, 0x10, 0x00, 0x00, 0x00, 0x28, 0x00, 0x00, 0x00, 0x00, 0x00, 0x06, 0x00,
  0x08, 0x00, 0x04, 0x00, 0x06, 0x00, 0x00, 0x00, 0x04, 0x00, 0x00, 0x00, 0x01, 0x00, 0x00, 0x00,
  0xeb, 0x03, 0x00, 0x00, 0x0c, 0x00, 0x18, 0x00, 0x14, 0x00, 0x10, 0x00, 0x0c, 0x00, 0x04, 0x00,
  0x0c, 0x00, 0x00, 0x00, 0x74, 0x7c, 0x17, 0xd5, 0xed, 0x58, 0xc8, 0xe3, 0x02, 0x00, 0x00, 0x00,
  0x02, 0x00, 0x00, 0x00, 0x04, 0x00, 0x00, 0x00, 0x06, 0x00, 0x00, 0x00, 0x32, 0x2e, 0x32, 0x30,
  0x2e, 0x30, 0x00, 0x00, 0x8a, 0xfa, 0xff, 0xff, 0x04, 0x00, 0x00, 0x00, 0x10, 0x00, 0x00, 0x00,
  0x31, 0x2e, 0x31, 0x34, 0x2e, 0x30, 0x00, 0x00, 0x00, 0x00, 0x00, 0x00, 0x00, 0x00, 0x00, 0x00,
  0x74, 0xfa, 0xff, 0xff, 0x78, 0xfa, 0xff, 0xff, 0x7c, 0xfa, 0xff, 0xff, 0x80, 0xfa, 0xff, 0xff,
  0xb6, 0xfa, 0xff, 0xff, 0x04, 0x00, 0x00, 0x00, 0x20, 0x01, 0x00, 0x00, 0x03, 0x78, 0xe7, 0x92,
  0x0b, 0x25, 0x7f, 0x33, 0x45, 0xd9, 0xd8, 0x1a, 0x7f, 0x02, 0xf7, 0xc8, 0x1b, 0x09, 0xc7, 0x55,
  0x7f, 0x06, 0x22, 0xf5, 0xdf, 0xb3, 0x3a, 0x18, 0x7f, 0x62, 0xf6, 0x49, 0xe5, 0xcb, 0x0c, 0xea,
  0xf9, 0x07, 0xb8, 0x0e, 0xfe, 0xf4, 0xeb, 0x03, 0x7f, 0x20, 0x3c, 0xc1, 0xde, 0xe7, 0xf9, 0xc4,
  0x2b, 0x81, 0xdd, 0x7f, 0x44, 0xfd, 0x3d, 0xf2, 0xf1, 0xb0, 0x13, 0xee, 0x5d, 0x07, 0xfc, 0x4a,
  0xf6, 0xef, 0x71, 0x7f, 0xf7, 0xff, 0xfe, 0x01, 0x7f, 0x01, 0x01, 0x60, 0x92, 0x01, 0x46, 0x23,
  0x97, 0x3b, 0x23, 0x7f, 0x10, 0x45, 0xff, 0x00, 0xfa, 0x01, 0x7f, 0x01, 0x00, 0x67, 0x98, 0x0f,
  0x39, 0x18, 0x19, 0x0a, 0x0f, 0x45, 0x44, 0x7f, 0xfb, 0x81, 0x0b, 0x35, 0x15, 0x13, 0x4e, 0xd0,
  0xe1, 0xde, 0xa4, 0xf3, 0x7f, 0x0d, 0xfb, 0xdb, 0x02, 0xf2, 0x40, 0x71, 0xaf, 0xd9, 0x90, 0x72,
  0x02, 0xb7, 0x7f, 0x18, 0xfc, 0x20, 0xfd, 0x1c, 0xe9, 0xd0, 0x5b, 0x7f, 0xe4, 0x81, 0xe9, 0x3f,
  0xe8, 0x01, 0xdb, 0xfe, 0xb5, 0xf0, 0x48, 0xff, 0xd6, 0xff, 0xf4, 0x63, 0x81, 0x06, 0x0d, 0x7f,
  0x39, 0xeb, 0x6a, 0xf7, 0xf6, 0x22, 0xd9, 0xc4, 0xb3, 0x00, 0xc0, 0x41, 0x15, 0x74, 0x81, 0x34,
  0x01, 0x5d, 0xf8, 0xe0, 0xfd, 0xd5, 0x90, 0xfe, 0x81, 0x07, 0xcb, 0x81, 0x05, 0xd9, 0xfb, 0xeb,
  0xbb, 0x3d, 0xe3, 0x51, 0xf9, 0xcf, 0x08, 0xe2, 0x91, 0x3d, 0x81, 0xe1, 0x42, 0x23, 0xa3, 0x2b,
  0x1f, 0x7f, 0x97, 0x3c, 0xf5, 0x3e, 0xd9, 0xfb, 0xb0, 0x03, 0x05, 0x81, 0xd7, 0x1f, 0x47, 0xf3,
  0xba, 0x08, 0xef, 0x97, 0x3d, 0x81, 0xfe, 0x81, 0xfd, 0xfa, 0x14, 0xfa, 0x06, 0x3f, 0x6c, 0xef,
  0x81, 0x0f, 0xeb, 0x31, 0x20, 0x53, 0xd8, 0x28, 0xf3, 0xc2, 0xcc, 0xdc, 0xbd, 0x3b, 0xe3, 0x81,
  0xb6, 0x29, 0x53, 0x8f, 0xe5, 0x81, 0x0c, 0xfe, 0xca, 0x86, 0x17, 0x72, 0x7f, 0xdd, 0x3d, 0xd2,
  0xc4, 0x41, 0x20, 0xe3, 0x24, 0xca, 0xfc, 0x81, 0xfe, 0x00, 0x86, 0x71, 0xe2, 0xfb, 0xff, 0xff,
  0x04, 0x00, 0x00, 0x00, 0x80, 0x00, 0x00, 0x00, 0xc1, 0xf9, 0xff, 0xff, 0xb2, 0xff, 0xff, 0xff,
  0x63, 0x03, 0x00, 0x00, 0xb1, 0x00, 0x00, 0x00, 0xce, 0x01, 0x00, 0x00, 0x83, 0x00, 0x00, 0x00,
  0x6a, 0x04, 0x00, 0x00, 0x9a, 0x05, 0x00, 0x00, 0x52, 0x05, 0x00, 0x00, 0xd6, 0xf6, 0xff, 0xff,
  0x11, 0x05, 0x00, 0x00, 0xbc, 0xfe, 0xff, 0xff, 0xc6, 0xf8, 0xff, 0xff, 0xca, 0xf9, 0xff, 0xff,
  0xa0, 0xf3, 0xff, 0xff, 0xb3, 0x05, 0x00, 0x00, 0x00, 0xfb, 0xff, 0xff, 0xa5, 0xff, 0xff, 0xff,
  0xa9, 0x02, 0x00, 0x00, 0x15, 0xf9, 0xff, 0xff, 0x99, 0x06, 0x00, 0x00, 0xb7, 0xfc, 0xff, 0xff,
  0xbc, 0x05, 0x00, 0x00, 0xa3, 0xf9, 0xff, 0xff, 0x33, 0xfa, 0xff, 0xff, 0xd9, 0x04, 0x00, 0x00,
  0x06, 0xfc, 0xff, 0xff, 0x1c, 0xfa, 0xff, 0xff, 0x2b, 0xf8, 0xff, 0xff, 0x51, 0xf0, 0xff, 0xff,
  0xa5, 0x01, 0x00, 0x00, 0xd4, 0xfc, 0xff, 0xff, 0x6e, 0xfc, 0xff, 0xff, 0x04, 0x00, 0x00, 0x00,
  0x00, 0x02, 0x00, 0x00, 0x23, 0xf3, 0x02, 0xe9, 0x76, 0x01, 0xff, 0x0f, 0xb6, 0xe3, 0x81, 0x02,
  0xe8, 0xec, 0x6d, 0x0e, 0xfa, 0x21, 0xd8, 0xfd, 0xf8, 0x4c, 0xff, 0xfa, 0x06, 0x00, 0x12, 0xef,
  0x17, 0x02, 0xe9, 0x19, 0x1d, 0x05, 0x0c, 0x25, 0x13, 0x11, 0x22, 0x7f, 0xfb, 0xf4, 0x04, 0xf3,
  0x92, 0xf6, 0x0b, 0x53, 0xf5, 0xb4, 0x27, 0xcc, 0x06, 0x15, 0x01, 0xd5, 0xd9, 0x12, 0x4c, 0x9a,
  0x99, 0xdf, 0x1b, 0x00, 0x07, 0xda, 0x6b, 0x16, 0xff, 0xfb, 0x7f, 0x16, 0x13, 0x14, 0x18, 0xf3,
  0xf7, 0x9f, 0xfd, 0xf7, 0xa3, 0x1a, 0x43, 0x33, 0x09, 0xf8, 0x01, 0x49, 0x17, 0x01, 0xbb, 0x01,
  0xf4, 0xea, 0x0c, 0xff, 0x4d, 0xf9, 0x06, 0xe6, 0x5e, 0xff, 0xf3, 0xfa, 0xfb, 0xfd, 0xff, 0x6b,
  0x5d, 0x13, 0x50, 0xe9, 0x05, 0x61, 0xf2, 0x6d, 0xfe, 0x7c, 0xfe, 0x26, 0xfe, 0xfe, 0x7f, 0x71,
  0x63, 0xfd, 0xde, 0x1f, 0x11, 0xf3, 0x02, 0x29, 0xfa, 0x41, 0x05, 0x0d, 0xfa, 0xfe, 0xf8, 0xd7,
  0xcf, 0xe7, 0x0d, 0x3e, 0x02, 0xe8, 0x13, 0xb1, 0x7f, 0x07, 0x7c, 0xe4, 0x09, 0x7f, 0xe1, 0xac,
  0x01, 0x6b, 0x52, 0xfc, 0xbf, 0xef, 0x40, 0x20, 0x09, 0x3e, 0x38, 0xf8, 0xf0, 0xf4, 0xf6, 0x9e,
  0xbd, 0xec, 0x03, 0x00, 0xfa, 0x13, 0x0b, 0x01, 0x7f, 0xfe, 0x7b, 0x1b, 0x7f, 0x73, 0xc0, 0xd2,
  0x1d, 0x6a, 0x45, 0x13, 0x08, 0x01, 0x10, 0x04, 0xf2, 0xff, 0x0f, 0x10, 0x5e, 0x51, 0x7f, 0x1b,
  0xff, 0x01, 0xe4, 0xf9, 0x01, 0xfe, 0x18, 0xf8, 0x01, 0xdf, 0xfe, 0x10, 0xe6, 0x00, 0xf5, 0x01,
  0xf1, 0xf3, 0xfb, 0xd4, 0xde, 0x2b, 0xcd, 0xd2, 0xfd, 0x05, 0x81, 0x8c, 0xf9, 0xac, 0xf3, 0xf7,
  0x0b, 0x60, 0xfe, 0xca, 0x61, 0xea, 0xb0, 0xee, 0x00, 0xfe, 0x09, 0x81, 0xfe, 0x04, 0x1a, 0x02,
  0x46, 0x3a, 0xc4, 0xe1, 0xc6, 0x16, 0x50, 0x0b, 0xae, 0xfb, 0x20, 0x16, 0x52, 0xd0, 0x5c, 0xf6,
  0xfe, 0x04, 0xae, 0xfd, 0x07, 0xac, 0x3b, 0xa5, 0xef, 0x81, 0x03, 0xba, 0xd8, 0x04, 0xe1, 0xf5,
  0xbb, 0xe9, 0x01, 0xbf, 0xee, 0x08, 0x24, 0x06, 0x21, 0xf8, 0x14, 0x69, 0x22, 0xb4, 0x21, 0x25,
  0xf9, 0x02, 0x05, 0x1a, 0x02, 0xbf, 0x07, 0x81, 0xf7, 0xf1, 0xfa, 0x99, 0xc7, 0xf9, 0x02, 0xef,
  0xd5, 0xd1, 0xff, 0xec, 0x25, 0xee, 0xea, 0x57, 0xea, 0x3f, 0xfa, 0x09, 0x01, 0x39, 0x04, 0xff,
  0x00, 0xdd, 0xef, 0x00, 0xfa, 0x08, 0x34, 0x0b, 0x7f, 0xef, 0x74, 0x0f, 0xfd, 0x6e, 0xd3, 0x04,
  0xf7, 0x61, 0x61, 0xf0, 0x24, 0xf8, 0xd8, 0xdf, 0xf7, 0x37, 0xdb, 0xdb, 0x41, 0x7f, 0x66, 0x19,
  0xfc, 0xfc, 0xf3, 0xdd, 0xfc, 0x0a, 0x06, 0xeb, 0x09, 0xeb, 0xff, 0x0c, 0x02, 0x08, 0xea, 0xfe,
  0xf0, 0x2c, 0xc8, 0xe7, 0x92, 0x52, 0x2b, 0x0f, 0xcb, 0xfd, 0x19, 0x11, 0x21, 0xc6, 0x15, 0xd6,
  0x11, 0x7f, 0xb9, 0xf2, 0x35, 0xa8, 0x18, 0xe4, 0x01, 0xf9, 0xfb, 0xa0, 0xbd, 0xfd, 0x2a, 0x07,
  0xfd, 0xd4, 0x11, 0x96, 0x7d, 0xbd, 0xb3, 0xf8, 0x01, 0x8e, 0xdf, 0x56, 0x13, 0x55, 0x14, 0x42,
  0x12, 0xbf, 0x20, 0x23, 0x81, 0x05, 0x27, 0x07, 0xb3, 0x09, 0x93, 0x16, 0xb9, 0xc0, 0x39, 0x17,
  0xc3, 0x9e, 0xf0, 0x05, 0x26, 0xd1, 0x1c, 0xdc, 0x08, 0x00, 0x29, 0xe1, 0x0f, 0x32, 0xfe, 0xe8,
  0x10, 0xc2, 0x21, 0xb2, 0xe5, 0x6a, 0x00, 0x49, 0x00, 0x06, 0xfa, 0x52, 0x7f, 0xfd, 0xd4, 0x10,
  0x61, 0x1c, 0xbb, 0xed, 0xfc, 0x1e, 0x13, 0xee, 0x01, 0xe0, 0xfb, 0xcc, 0x1a, 0x20, 0x19, 0x05,
  0x5b, 0x38, 0xf0, 0xa6, 0x27, 0x05, 0x03, 0x31, 0xa8, 0x00, 0x86, 0x1f, 0xfc, 0x92, 0x06, 0x7f,
  0x1c, 0xde, 0xd0, 0xfe, 0x7a, 0xfe, 0xff, 0xff, 0x04, 0x00, 0x00, 0x00, 0x40, 0x00, 0x00, 0x00,
  0xbe, 0x01, 0x00, 0x00, 0xc9, 0x01, 0x00, 0x00, 0x30, 0xfe, 0xff, 0xff, 0x13, 0x01, 0x00, 0x00,
  0x29, 0x03, 0x00, 0x00, 0x45, 0x02, 0x00, 0x00, 0x77, 0x01, 0x00, 0x00, 0x17, 0x05, 0x00, 0x00,
  0xd7, 0x06, 0x00, 0x00, 0x54, 0x05, 0x00, 0x00, 0xd0, 0xff, 0xff, 0xff, 0x15, 0x0a, 0x00, 0x00,
  0x20, 0x03, 0x00, 0x00, 0x5c, 0xfb, 0xff, 0xff, 0x4e, 0xfe, 0xff, 0xff, 0xb3, 0x00, 0x00, 0x00,
  0xc6, 0xfe, 0xff, 0xff, 0x04, 0x00, 0x00, 0x00, 0x70, 0x00, 0x00, 0x00, 0x2e, 0x3d, 0xa4, 0x10,
  0xfd, 0xc6, 0xbc, 0xa3, 0x81, 0x52, 0xc5, 0xc3, 0xa3, 0x40, 0xc4, 0x94, 0x1e, 0x04, 0xdb, 0x04,
  0x24, 0x1a, 0x81, 0x0c, 0xdc, 0xc4, 0x28, 0x10, 0xad, 0x9c, 0x14, 0xb4, 0x2f, 0xed, 0x30, 0x15,
  0xc0, 0x21, 0xc5, 0xb3, 0x8f, 0xf1, 0xb0, 0x81, 0x98, 0xd8, 0x30, 0x1d, 0xc8, 0x18, 0x13, 0x81,
  0x1f, 0x16, 0x11, 0xf3, 0x29, 0x25, 0x23, 0x0d, 0x11, 0xc5, 0xb2, 0xb9, 0x87, 0x8c, 0xd0, 0x0a,
  0x9d, 0x81, 0x17, 0x1a, 0x20, 0x22, 0xcf, 0x1a, 0x22, 0xf4, 0xc7, 0x22, 0x12, 0x04, 0xd8, 0x10,
  0xb1, 0xd0, 0x99, 0x1f, 0xc8, 0xae, 0xb3, 0x81, 0x22, 0x09, 0x05, 0x20, 0xc4, 0xc4, 0x21, 0x10,
  0x9f, 0x9c, 0x1d, 0x81, 0x0b, 0xed, 0x1d, 0x1e, 0xef, 0x29, 0x21, 0x24, 0x42, 0xff, 0xff, 0xff,
  0x04, 0x00, 0x00, 0x00, 0x1c, 0x00, 0x00, 0x00, 0xc8, 0x00, 0x00, 0x00, 0xed, 0x00, 0x00, 0x00,
  0x03, 0xfd, 0xff, 0xff, 0xdc, 0xff, 0xff, 0xff, 0x57, 0x02, 0x00, 0x00, 0x76, 0xfe, 0xff, 0xff,
  0xda, 0xfd, 0xff, 0xff, 0x38, 0xff, 0xff, 0xff, 0x3c, 0xff, 0xff, 0xff, 0x0f, 0x00, 0x00, 0x00,
  0x4d, 0x4c, 0x49, 0x52, 0x20, 0x43, 0x6f, 0x6e, 0x76, 0x65, 0x72, 0x74, 0x65, 0x64, 0x2e, 0x00,
  0x01, 0x00, 0x00, 0x00, 0x14, 0x00, 0x00, 0x00, 0x00, 0x00, 0x0e, 0x00, 0x18, 0x00, 0x14, 0x00,
  0x10, 0x00, 0x0c, 0x00, 0x08, 0x00, 0x04, 0x00, 0x0e, 0x00, 0x00, 0x00, 0x14, 0x00, 0x00, 0x00,
  0x1c, 0x00, 0x00, 0x00, 0x28, 0x01, 0x00, 0x00, 0x2c, 0x01, 0x00, 0x00, 0x30, 0x01, 0x00, 0x00,
  0x04, 0x00, 0x00, 0x00, 0x6d, 0x61, 0x69, 0x6e, 0x00, 0x00, 0x00, 0x00, 0x04, 0x00, 0x00, 0x00,
  0xd0, 0x00, 0x00, 0x00, 0x88, 0x00, 0x00, 0x00, 0x50, 0x00, 0x00, 0x00, 0x14, 0x00, 0x00, 0x00,
  0x00, 0x00, 0x0e, 0x00, 0x1a, 0x00, 0x14, 0x00, 0x10, 0x00, 0x0c, 0x00, 0x0b, 0x00, 0x04, 0x00,
  0x0e, 0x00, 0x00, 0x00, 0x1c, 0x00, 0x00, 0x00, 0x00, 0x00, 0x00, 0x09, 0x1c, 0x00, 0x00, 0x00,
  0x20, 0x00, 0x00, 0x00, 0x01, 0x00, 0x00, 0x00, 0x00, 0x00, 0x06, 0x00, 0x08, 0x00, 0x04, 0x00,
  0x06, 0x00, 0x00, 0x00, 0x00, 0x00, 0x80, 0x3f, 0x01, 0x00, 0x00, 0x00, 0x0a, 0x00, 0x00, 0x00,
  0x01, 0x00, 0x00, 0x00, 0x09, 0x00, 0x00, 0x00, 0x96, 0xff, 0xff, 0xff, 0x14, 0x00, 0x00, 0x00,
  0x00, 0x00, 0x00, 0x08, 0x10, 0x00, 0x00, 0x00, 0x14, 0x00, 0x00, 0x00, 0x04, 0x00, 0x04, 0x00,
  0x04, 0x00, 0x00, 0x00, 0x01, 0x00, 0x00, 0x00, 0x09, 0x00, 0x00, 0x00, 0x03, 0x00, 0x00, 0x00,
  0x08, 0x00, 0x00, 0x00, 0x02, 0x00, 0x00, 0x00, 0x01, 0x00, 0x00, 0x00, 0xca, 0xff, 0xff, 0xff,
  0x10, 0x00, 0x00, 0x00, 0x00, 0x00, 0x00, 0x08, 0x10, 0x00, 0x00, 0x00, 0x14, 0x00, 0x00, 0x00,
  0xba, 0xff, 0xff, 0xff, 0x00, 0x00, 0x00, 0x01, 0x01, 0x00, 0x00, 0x00, 0x08, 0x00, 0x00, 0x00,
  0x03, 0x00, 0x00, 0x00, 0x07, 0x00, 0x00, 0x00, 0x04, 0x00, 0x00, 0x00, 0x03, 0x00, 0x00, 0x00,
  0x00, 0x00, 0x0e, 0x00, 0x16, 0x00, 0x00, 0x00, 0x10, 0x00, 0x0c, 0x00, 0x0b, 0x00, 0x04, 0x00,
  0x0e, 0x00, 0x00, 0x00, 0x18, 0x00, 0x00, 0x00, 0x00, 0x00, 0x00, 0x08, 0x18, 0x00, 0x00, 0x00,
  0x1c, 0x00, 0x00, 0x00, 0x00, 0x00, 0x06, 0x00, 0x08, 0x00, 0x07, 0x00, 0x06, 0x00, 0x00, 0x00,
  0x00, 0x00, 0x00, 0x01, 0x01, 0x00, 0x00, 0x00, 0x07, 0x00, 0x00, 0x00, 0x03, 0x00, 0x00, 0x00,
  0x00, 0x00, 0x00, 0x00, 0x06, 0x00, 0x00, 0x00, 0x05, 0x00, 0x00, 0x00, 0x01, 0x00, 0x00, 0x00,
  0x0a, 0x00, 0x00, 0x00, 0x01, 0x00, 0x00, 0x00, 0x00, 0x00, 0x00, 0x00, 0x0b, 0x00, 0x00, 0x00,
  0xf8, 0x09, 0x00, 0x00, 0x38, 0x09, 0x00, 0x00, 0x74, 0x08, 0x00, 0x00, 0x60, 0x07, 0x00, 0x00,
  0x44, 0x06, 0x00, 0x00, 0x70, 0x04, 0x00, 0x00, 0x94, 0x02, 0x00, 0x00, 0xd8, 0x01, 0x00, 0x00,
  0x1c, 0x01, 0x00, 0x00, 0x80, 0x00, 0x00, 0x00, 0x04, 0x00, 0x00, 0x00, 0x4a, 0xf6, 0xff, 0xff,
  0x00, 0x00, 0x00, 0x01, 0x18, 0x00, 0x00, 0x00, 0x20, 0x00, 0x00, 0x00, 0x3c, 0x00, 0x00, 0x00,
  0x0b, 0x00, 0x00, 0x00, 0x00, 0x00, 0x00, 0x09, 0x50, 0x00, 0x00, 0x00, 0x02, 0x00, 0x00, 0x00,
  0xff, 0xff, 0xff, 0xff, 0x07, 0x00, 0x00, 0x00, 0x34, 0xf6, 0xff, 0xff, 0x08, 0x00, 0x00, 0x00,
  0x10, 0x00, 0x00, 0x00, 0x01, 0x00, 0x00, 0x00, 0x80, 0xff, 0xff, 0xff, 0xff, 0xff, 0xff, 0xff,
  0x01, 0x00, 0x00, 0x00, 0x00, 0x00, 0x80, 0x3b, 0x1b, 0x00, 0x00, 0x00, 0x53, 0x74, 0x61, 0x74,
  0x65, 0x66, 0x75, 0x6c, 0x50, 0x61, 0x72, 0x74, 0x69, 0x74, 0x69, 0x6f, 0x6e, 0x65, 0x64, 0x43,
  0x61, 0x6c, 0x6c, 0x5f, 0x31, 0x3a, 0x30, 0x00, 0x02, 0x00, 0x00, 0x00, 0x01, 0x00, 0x00, 0x00,
  0x07, 0x00, 0x00, 0x00, 0xc2, 0xf6, 0xff, 0xff, 0x00, 0x00, 0x00, 0x01, 0x18, 0x00, 0x00, 0x00,
  0x20, 0x00, 0x00, 0x00, 0x3c, 0x00, 0x00, 0x00, 0x0a, 0x00, 0x00, 0x00, 0x00, 0x00, 0x00, 0x09,
  0x70, 0x00, 0x00, 0x00, 0x02, 0x00, 0x00, 0x00, 0xff, 0xff, 0xff, 0xff, 0x07, 0x00, 0x00, 0x00,
  0xac, 0xf6, 0xff, 0xff, 0x08, 0x00, 0x00, 0x00, 0x10, 0x00, 0x00, 0x00, 0x01, 0x00, 0x00, 0x00,
  0x2f, 0x00, 0x00, 0x00, 0x00, 0x00, 0x00, 0x00, 0x01, 0x00, 0x00, 0x00, 0x91, 0x75, 0x39, 0x3f,
  0x3a, 0x00, 0x00, 0x00, 0x73, 0x65, 0x71, 0x75, 0x65, 0x6e, 0x74, 0x69, 0x61, 0x6c, 0x5f, 0x31,
  0x2f, 0x6f, 0x75, 0x74, 0x70, 0x75, 0x74, 0x5f, 0x31, 0x2f, 0x4d, 0x61, 0x74, 0x4d, 0x75, 0x6c,
  0x3b, 0x73, 0x65, 0x71, 0x75, 0x65, 0x6e, 0x74, 0x69, 0x61, 0x6c, 0x5f, 0x31, 0x2f, 0x6f, 0x75,
  0x74, 0x70, 0x75, 0x74, 0x5f, 0x31, 0x2f, 0x42, 0x69, 0x61, 0x73, 0x41, 0x64, 0x64, 0x00, 0x00,
  0x02, 0x00, 0x00, 0x00, 0x01, 0x00, 0x00, 0x00, 0x07, 0x00, 0x00, 0x00, 0x5a, 0xf7, 0xff, 0xff,
  0x00, 0x00, 0x00, 0x01, 0x18, 0x00, 0x00, 0x00, 0x20, 0x00, 0x00, 0x00, 0x3c, 0x00, 0x00, 0x00,
  0x09, 0x00, 0x00, 0x00, 0x00, 0x00, 0x00, 0x09, 0x90, 0x00, 0x00, 0x00, 0x02, 0x00, 0x00, 0x00,
  0xff, 0xff, 0xff, 0xff, 0x10, 0x00, 0x00, 0x00, 0x44, 0xf7, 0xff, 0xff, 0x08, 0x00, 0x00, 0x00,
  0x10, 0x00, 0x00, 0x00, 0x01, 0x00, 0x00, 0x00, 0x80, 0xff, 0xff, 0xff, 0xff, 0xff, 0xff, 0xff,
  0x01, 0x00, 0x00, 0x00, 0x97, 0x41, 0x06, 0x3e, 0x58, 0x00, 0x00, 0x00, 0x73, 0x65, 0x71, 0x75,
  0x65, 0x6e, 0x74, 0x69, 0x61, 0x6c, 0x5f, 0x31, 0x2f, 0x64, 0x65, 0x6e, 0x73, 0x65, 0x5f, 0x32,
  0x5f, 0x31, 0x2f, 0x4d, 0x61, 0x74, 0x4d, 0x75, 0x6c, 0x3b, 0x73, 0x65, 0x71, 0x75, 0x65, 0x6e,
  0x74, 0x69, 0x61, 0x6c, 0x5f, 0x31, 0x2f, 0x64, 0x65, 0x6e, 0x73, 0x65, 0x5f, 0x32, 0x5f, 0x31,
  0x2f, 0x52, 0x65, 0x6c, 0x75, 0x3b, 0x73, 0x65, 0x71, 0x75, 0x65, 0x6e, 0x74, 0x69, 0x61, 0x6c,
  0x5f, 0x31, 0x2f, 0x64, 0x65, 0x6e, 0x73, 0x65, 0x5f, 0x32, 0x5f, 0x31, 0x2f, 0x42, 0x69, 0x61,
  0x73, 0x41, 0x64, 0x64, 0x00, 0x00, 0x00, 0x00, 0x02, 0x00, 0x00, 0x00, 0x01, 0x00, 0x00, 0x00,
  0x10, 0x00, 0x00, 0x00, 0x12, 0xf8, 0xff, 0xff, 0x00, 0x00, 0x00, 0x01, 0x18, 0x00, 0x00, 0x00,
  0x20, 0x00, 0x00, 0x00, 0x3c, 0x00, 0x00, 0x00, 0x08, 0x00, 0x00, 0x00, 0x00, 0x00, 0x00, 0x09,
  0x90, 0x00, 0x00, 0x00, 0x02, 0x00, 0x00, 0x00, 0xff, 0xff, 0xff, 0xff, 0x20, 0x00, 0x00, 0x00,
  0xfc, 0xf7, 0xff, 0xff, 0x08, 0x00, 0x00, 0x00, 0x10, 0x00, 0x00, 0x00, 0x01, 0x00, 0x00, 0x00,
  0x80, 0xff, 0xff, 0xff, 0xff, 0xff, 0xff, 0xff, 0x01, 0x00, 0x00, 0x00, 0x1d, 0x1d, 0xf9, 0x3c,
  0x58, 0x00, 0x00, 0x00, 0x73, 0x65, 0x71, 0x75, 0x65, 0x6e, 0x74, 0x69, 0x61, 0x6c, 0x5f, 0x31,
  0x2f, 0x64, 0x65, 0x6e, 0x73, 0x65, 0x5f, 0x31, 0x5f, 0x31, 0x2f, 0x4d, 0x61, 0x74, 0x4d, 0x75,
  0x6c, 0x3b, 0x73, 0x65, 0x71, 0x75, 0x65, 0x6e, 0x74, 0x69, 0x61, 0x6c, 0x5f, 0x31, 0x2f, 0x64,
  0x65, 0x6e, 0x73, 0x65, 0x5f, 0x31, 0x5f, 0x31, 0x2f, 0x52, 0x65, 0x6c, 0x75, 0x3b, 0x73, 0x65,
  0x71, 0x75, 0x65, 0x6e, 0x74, 0x69, 0x61, 0x6c, 0x5f, 0x31, 0x2f, 0x64, 0x65, 0x6e, 0x73, 0x65,
  0x5f, 0x31, 0x5f, 0x31, 0x2f, 0x42, 0x69, 0x61, 0x73, 0x41, 0x64, 0x64, 0x00, 0x00, 0x00, 0x00,
  0x02, 0x00, 0x00, 0x00, 0x01, 0x00, 0x00, 0x00, 0x20, 0x00, 0x00, 0x00, 0x86, 0xf9, 0xff, 0xff,
  0x00, 0x00, 0x00, 0x01, 0x14, 0x00, 0x00, 0x00, 0xa8, 0x01, 0x00, 0x00, 0x07, 0x00, 0x00, 0x00,
  0x00, 0x00, 0x00, 0x09, 0xb4, 0x01, 0x00, 0x00, 0xa4, 0xf8, 0xff, 0xff, 0x08, 0x00, 0x00, 0x00,
  0x0c, 0x01, 0x00, 0x00, 0x20, 0x00, 0x00, 0x00, 0x00, 0x00, 0x00, 0x00, 0x00, 0x00, 0x00, 0x00,
  0x00, 0x00, 0x00, 0x00, 0x00, 0x00, 0x00, 0x00, 0x00, 0x00, 0x00, 0x00, 0x00, 0x00, 0x00, 0x00,
  0x00, 0x00, 0x00, 0x00, 0x00, 0x00, 0x00, 0x00, 0x00, 0x00, 0x00, 0x00, 0x00, 0x00, 0x00, 0x00,
  0x00, 0x00, 0x00, 0x00, 0x00, 0x00, 0x00, 0x00, 0x00, 0x00, 0x00, 0x00, 0x00, 0x00, 0x00, 0x00,
  0x00, 0x00, 0x00, 0x00, 0x00, 0x00, 0x00, 0x00, 0x00, 0x00, 0x00, 0x00, 0x00, 0x00, 0x00, 0x00,
  0x00, 0x00, 0x00, 0x00, 0x00, 0x00, 0x00, 0x00, 0x00, 0x00, 0x00, 0x00, 0x00, 0x00, 0x00, 0x00,
  0x00, 0x00, 0x00, 0x00, 0x00, 0x00, 0x00, 0x00, 0x00, 0x00, 0x00, 0x00, 0x00, 0x00, 0x00, 0x00,
  0x00, 0x00, 0x00, 0x00, 0x00, 0x00, 0x00, 0x00, 0x00, 0x00, 0x00, 0x00, 0x00, 0x00, 0x00, 0x00,
  0x00, 0x00, 0x00, 0x00, 0x00, 0x00, 0x00, 0x00, 0x00, 0x00, 0x00, 0x00, 0x00, 0x00, 0x00, 0x00,
  0x00, 0x00, 0x00, 0x00, 0x00, 0x00, 0x00, 0x00, 0x00, 0x00, 0x00, 0x00, 0x00, 0x00, 0x00, 0x00,
  0x00, 0x00, 0x00, 0x00, 0x00, 0x00, 0x00, 0x00, 0x00, 0x00, 0x00, 0x00, 0x00, 0x00, 0x00, 0x00,
  0x00, 0x00, 0x00, 0x00, 0x00, 0x00, 0x00, 0x00, 0x00, 0x00, 0x00, 0x00, 0x00, 0x00, 0x00, 0x00,
  0x00, 0x00, 0x00, 0x00, 0x00, 0x00, 0x00, 0x00, 0x00, 0x00, 0x00, 0x00, 0x00, 0x00, 0x00, 0x00,
  0x00, 0x00, 0x00, 0x00, 0x00, 0x00, 0x00, 0x00, 0x00, 0x00, 0x00, 0x00, 0x00, 0x00, 0x00, 0x00,
  0x00, 0x00, 0x00, 0x00, 0x00, 0x00, 0x00, 0x00, 0x00, 0x00, 0x00, 0x00, 0x00, 0x00, 0x00, 0x00,
  0x00, 0x00, 0x00, 0x00, 0x00, 0x00, 0x00, 0x00, 0x00, 0x00, 0x00, 0x00, 0x00, 0x00, 0x00, 0x00,
  0x00, 0x00, 0x00, 0x00, 0x00, 0x00, 0x00, 0x00, 0x00, 0x00, 0x00, 0x00, 0x20, 0x00, 0x00, 0x00,
  0x14, 0x6e, 0xc0, 0x3b, 0xae, 0xf9, 0xe5, 0x3b, 0x15, 0x11, 0xff, 0x3b, 0xce, 0x07, 0xe8, 0x3b,
  0xa3, 0x20, 0x17, 0x3c, 0xab, 0x22, 0x9e, 0x3b, 0xee, 0x1a, 0x12, 0x3c, 0xf0, 0x5d, 0xe3, 0x3b,
  0xf7, 0x77, 0xcd, 0x3b, 0x81, 0x03, 0xbb, 0x3b, 0x4e, 0xc2, 0xdf, 0x3b, 0x29, 0x71, 0xf8, 0x3b,
  0x4d, 0x76, 0xe1, 0x3b, 0xf8, 0x92, 0xe9, 0x3b, 0xda, 0xc8, 0x76, 0x3b, 0x36, 0xad, 0x05, 0x3c,
  0x0c, 0x21, 0xe8, 0x3b, 0xdf, 0x94, 0x08, 0x3c, 0x00, 0xa3, 0xc8, 0x3b, 0x96, 0x86, 0xd7, 0x3b,
  0xf4, 0x9b, 0xae, 0x3b, 0x71, 0x0b, 0x03, 0x3c, 0x00, 0x7d, 0xc0, 0x3b, 0xa7, 0x19, 0xd5, 0x3b,
  0xfa, 0xeb, 0x04, 0x3c, 0xc6, 0xda, 0xa6, 0x3b, 0xe5, 0x3f, 0x04, 0x3c, 0x7e, 0xde, 0xe5, 0x3b,
  0x48, 0x5b, 0xd8, 0x3b, 0x46, 0xc1, 0x81, 0x3b, 0x87, 0xfa, 0xb7, 0x3b, 0x04, 0x71, 0xa9, 0x3b,
  0x12, 0x00, 0x00, 0x00, 0x74, 0x66, 0x6c, 0x2e, 0x70, 0x73, 0x65, 0x75, 0x64, 0x6f, 0x5f, 0x71,
  0x63, 0x6f, 0x6e, 0x73, 0x74, 0x35, 0x00, 0x00, 0x02, 0x00, 0x00, 0x00, 0x20, 0x00, 0x00, 0x00,
  0x09, 0x00, 0x00, 0x00, 0x5e, 0xfb, 0xff, 0xff, 0x00, 0x00, 0x00, 0x01, 0x14, 0x00, 0x00, 0x00,
  0xa4, 0x01, 0x00, 0x00, 0x06, 0x00, 0x00, 0x00, 0x00, 0x00, 0x00, 0x02, 0xb0, 0x01, 0x00, 0x00,
  0x7c, 0xfa, 0xff, 0xff, 0x08, 0x00, 0x00, 0x00, 0x08, 0x01, 0x00, 0x00, 0x20, 0x00, 0x00, 0x00,
  0x00, 0x00, 0x00, 0x00, 0x00, 0x00, 0x00, 0x00, 0x00, 0x00, 0x00, 0x00, 0x00, 0x00, 0x00, 0x00,
  0x00, 0x00, 0x00, 0x00, 0x00, 0x00, 0x00, 0x00, 0x00, 0x00, 0x00, 0x00, 0x00, 0x00, 0x00, 0x00,
  0x00, 0x00, 0x00, 0x00, 0x00, 0x00, 0x00, 0x00, 0x00, 0x00, 0x00, 0x00, 0x00, 0x00, 0x00, 0x00,
  0x00, 0x00, 0x00, 0x00, 0x00, 0x00, 0x00, 0x00, 0x00, 0x00, 0x00, 0x00, 0x00, 0x00, 0x00, 0x00,
  0x00, 0x00, 0x00, 0x00, 0x00, 0x00, 0x00, 0x00, 0x00, 0x00, 0x00, 0x00, 0x00, 0x00, 0x00, 0x00,
  0x00, 0x00, 0x00, 0x00, 0x00, 0x00, 0x00, 0x00, 0x00, 0x00, 0x00, 0x00, 0x00, 0x00, 0x00, 0x00,
  0x00, 0x00, 0x00, 0x00, 0x00, 0x00, 0x00, 0x00, 0x00, 0x00, 0x00, 0x00, 0x00, 0x00, 0x00, 0x00,
  0x00, 0x00, 0x00, 0x00, 0x00, 0x00, 0x00, 0x00, 0x00, 0x00, 0x00, 0x00, 0x00, 0x00, 0x00, 0x00,
  0x00, 0x00, 0x00, 0x00, 0x00, 0x00, 0x00, 0x00, 0x00, 0x00, 0x00, 0x00, 0x00, 0x00, 0x00, 0x00,
  0x00, 0x00, 0x00, 0x00, 0x00, 0x00, 0x00, 0x00, 0x00, 0x00, 0x00, 0x00, 0x00, 0x00, 0x00, 0x00,
  0x00, 0x00, 0x00, 0x00, 0x00, 0x00, 0x00, 0x00, 0x00, 0x00, 0x00, 0x00, 0x00, 0x00, 0x00, 0x00,
  0x00, 0x00, 0x00, 0x00, 0x00, 0x00, 0x00, 0x00, 0x00, 0x00, 0x00, 0x00, 0x00, 0x00, 0x00, 0x00,
  0x00, 0x00, 0x00, 0x00, 0x00, 0x00, 0x00, 0x00, 0x00, 0x00, 0x00, 0x00, 0x00, 0x00, 0x00, 0x00,
  0x00, 0x00, 0x00, 0x00, 0x00, 0x00, 0x00, 0x00, 0x00, 0x00, 0x00, 0x00, 0x00, 0x00, 0x00, 0x00,
  0x00, 0x00, 0x00, 0x00, 0x00, 0x00, 0x00, 0x00, 0x00, 0x00, 0x00, 0x00, 0x00, 0x00, 0x00, 0x00,
  0x00, 0x00, 0x00, 0x00, 0x00, 0x00, 0x00, 0x00, 0x00, 0x00, 0x00, 0x00, 0x00, 0x00, 0x00, 0x00,
  0x20, 0x00, 0x00, 0x00, 0xc9, 0x21, 0x80, 0x39, 0xcb, 0x21, 0x99, 0x39, 0xe6, 0xd6, 0xa9, 0x39,
  0x1f, 0x80, 0x9a, 0x39, 0xa6, 0x42, 0xc9, 0x39, 0xce, 0x97, 0x52, 0x39, 0x70, 0x92, 0xc2, 0x39,
  0x2b, 0x65, 0x97, 0x39, 0x5c, 0xd0, 0x88, 0x39, 0x09, 0x0d, 0x79, 0x39, 0x28, 0xfe, 0x94, 0x39,
  0xa6, 0x6d, 0xa5, 0x39, 0x78, 0x20, 0x96, 0x39, 0x3f, 0x87, 0x9b, 0x39, 0x1d, 0x53, 0x24, 0x39,
  0x43, 0x05, 0xb2, 0x39, 0xee, 0x90, 0x9a, 0x39, 0x9d, 0xe3, 0xb5, 0x39, 0xb6, 0x98, 0x85, 0x39,
  0xb4, 0x82, 0x8f, 0x39, 0x12, 0x88, 0x68, 0x39, 0xfd, 0x83, 0xae, 0x39, 0xb9, 0x2b, 0x80, 0x39,
  0x3f, 0xe5, 0x8d, 0x39, 0xed, 0x03, 0xb1, 0x39, 0x5b, 0x34, 0x5e, 0x39, 0xc3, 0x1e, 0xb0, 0x39,
  0xb1, 0x0f, 0x99, 0x39, 0x55, 0x10, 0x90, 0x39, 0x4b, 0xcc, 0x2c, 0x39, 0x51, 0x02, 0x75, 0x39,
  0x48, 0xa6, 0x61, 0x39, 0x12, 0x00, 0x00, 0x00, 0x74, 0x66, 0x6c, 0x2e, 0x70, 0x73, 0x65, 0x75,
  0x64, 0x6f, 0x5f, 0x71, 0x63, 0x6f, 0x6e, 0x73, 0x74, 0x34, 0x00, 0x00, 0x01, 0x00, 0x00, 0x00,
  0x20, 0x00, 0x00, 0x00, 0x2e, 0xfd, 0xff, 0xff, 0x00, 0x00, 0x00, 0x01, 0x14, 0x00, 0x00, 0x00,
  0xe8, 0x00, 0x00, 0x00, 0x05, 0x00, 0x00, 0x00, 0x00, 0x00, 0x00, 0x09, 0xf4, 0x00, 0x00, 0x00,
  0x4c, 0xfc, 0xff, 0xff, 0x08, 0x00, 0x00, 0x00, 0x8c, 0x00, 0x00, 0x00, 0x10, 0x00, 0x00, 0x00,
  0x00, 0x00, 0x00, 0x00, 0x00, 0x00, 0x00, 0x00, 0x00, 0x00, 0x00, 0x00, 0x00, 0x00, 0x00, 0x00,
  0x00, 0x00, 0x00, 0x00, 0x00, 0x00, 0x00, 0x00, 0x00, 0x00, 0x00, 0x00, 0x00, 0x00, 0x00, 0x00,
  0x00, 0x00, 0x00, 0x00, 0x00, 0x00, 0x00, 0x00, 0x00, 0x00, 0x00, 0x00, 0x00, 0x00, 0x00, 0x00,
  0x00, 0x00, 0x00, 0x00, 0x00, 0x00, 0x00, 0x00, 0x00, 0x00, 0x00, 0x00, 0x00, 0x00, 0x00, 0x00,
  0x00, 0x00, 0x00, 0x00, 0x00, 0x00, 0x00, 0x00, 0x00, 0x00, 0x00, 0x00, 0x00, 0x00, 0x00, 0x00,
  0x00, 0x00, 0x00, 0x00, 0x00, 0x00, 0x00, 0x00, 0x00, 0x00, 0x00, 0x00, 0x00, 0x00, 0x00, 0x00,
  0x00, 0x00, 0x00, 0x00, 0x00, 0x00, 0x00, 0x00, 0x00, 0x00, 0x00, 0x00, 0x00, 0x00, 0x00, 0x00,
  0x00, 0x00, 0x00, 0x00, 0x00, 0x00, 0x00, 0x00, 0x00, 0x00, 0x00, 0x00, 0x00, 0x00, 0x00, 0x00,
  0x00, 0x00, 0x00, 0x00, 0x10, 0x00, 0x00, 0x00, 0x5b, 0xfc, 0x88, 0x3c, 0x23, 0xad, 0x1b, 0x3c,
  0x2f, 0xba, 0x4e, 0x3c, 0x76, 0x53, 0x40, 0x3c, 0x2c, 0xe4, 0x39, 0x3c, 0xac, 0x73, 0x1b, 0x3c,
  0xd5, 0x40, 0xd8, 0x3c, 0xea, 0xad, 0x2d, 0x3c, 0xcf, 0x84, 0x1e, 0x3c, 0x75, 0x07, 0x46, 0x3c,
  0xfb, 0xcf, 0x86, 0x3c, 0xcd, 0x80, 0x78, 0x3c, 0xd5, 0x74, 0x3b, 0x3c, 0xf9, 0x38, 0x13, 0x3c,
  0xf3, 0x47, 0x0f, 0x3c, 0xd5, 0x63, 0x44, 0x3c, 0x12, 0x00, 0x00, 0x00, 0x74, 0x66, 0x6c, 0x2e,
  0x70, 0x73, 0x65, 0x75, 0x64, 0x6f, 0x5f, 0x71, 0x63, 0x6f, 0x6e, 0x73, 0x74, 0x33, 0x00, 0x00,
  0x02, 0x00, 0x00, 0x00, 0x10, 0x00, 0x00, 0x00, 0x20, 0x00, 0x00, 0x00, 0x46, 0xfe, 0xff, 0xff,
  0x00, 0x00, 0x00, 0x01, 0x14, 0x00, 0x00, 0x00, 0xe4, 0x00, 0x00, 0x00, 0x04, 0x00, 0x00, 0x00,
  0x00, 0x00, 0x00, 0x02, 0xf0, 0x00, 0x00, 0x00, 0x64, 0xfd, 0xff, 0xff, 0x08, 0x00, 0x00, 0x00,
  0x88, 0x00, 0x00, 0x00, 0x10, 0x00, 0x00, 0x00, 0x00, 0x00, 0x00, 0x00, 0x00, 0x00, 0x00, 0x00,
  0x00, 0x00, 0x00, 0x00, 0x00, 0x00, 0x00, 0x00, 0x00, 0x00, 0x00, 0x00, 0x00, 0x00, 0x00, 0x00,
  0x00, 0x00, 0x00, 0x00, 0x00, 0x00, 0x00, 0x00, 0x00, 0x00, 0x00, 0x00, 0x00, 0x00, 0x00, 0x00,
  0x00, 0x00, 0x00, 0x00, 0x00, 0x00, 0x00, 0x00, 0x00, 0x00, 0x00, 0x00, 0x00, 0x00, 0x00, 0x00,
  0x00, 0x00, 0x00, 0x00, 0x00, 0x00, 0x00, 0x00, 0x00, 0x00, 0x00, 0x00, 0x00, 0x00, 0x00, 0x00,
  0x00, 0x00, 0x00, 0x00, 0x00, 0x00, 0x00, 0x00, 0x00, 0x00, 0x00, 0x00, 0x00, 0x00, 0x00, 0x00,
  0x00, 0x00, 0x00, 0x00, 0x00, 0x00, 0x00, 0x00, 0x00, 0x00, 0x00, 0x00, 0x00, 0x00, 0x00, 0x00,
  0x00, 0x00, 0x00, 0x00, 0x00, 0x00, 0x00, 0x00, 0x00, 0x00, 0x00, 0x00, 0x00, 0x00, 0x00, 0x00,
  0x00, 0x00, 0x00, 0x00, 0x00, 0x00, 0x00, 0x00, 0x10, 0x00, 0x00, 0x00, 0x09, 0x4d, 0x05, 0x3a,
  0x1b, 0x7d, 0x97, 0x39, 0x9a, 0x2a, 0xc9, 0x39, 0x0d, 0x27, 0xbb, 0x39, 0x13, 0xe4, 0xb4, 0x39,
  0x30, 0x45, 0x97, 0x39, 0xa7, 0x6f, 0x52, 0x3a, 0xe9, 0x01, 0xa9, 0x39, 0x34, 0x41, 0x9a, 0x39,
  0xc6, 0xb3, 0xc0, 0x39, 0xa0, 0x2f, 0x03, 0x3a, 0x8a, 0xd1, 0xf1, 0x39, 0xf5, 0x69, 0xb6, 0x39,
  0x28, 0x43, 0x8f, 0x39, 0x47, 0x6d, 0x8b, 0x39, 0x70, 0x1b, 0xbf, 0x39, 0x12, 0x00, 0x00, 0x00,
  0x74, 0x66, 0x6c, 0x2e, 0x70, 0x73, 0x65, 0x75, 0x64, 0x6f, 0x5f, 0x71, 0x63, 0x6f, 0x6e, 0x73,
  0x74, 0x32, 0x00, 0x00, 0x01, 0x00, 0x00, 0x00, 0x10, 0x00, 0x00, 0x00, 0x56, 0xff, 0xff, 0xff,
  0x00, 0x00, 0x00, 0x01, 0x14, 0x00, 0x00, 0x00, 0x78, 0x00, 0x00, 0x00, 0x03, 0x00, 0x00, 0x00,
  0x00, 0x00, 0x00, 0x09, 0x84, 0x00, 0x00, 0x00, 0x74, 0xfe, 0xff, 0xff, 0x08, 0x00, 0x00, 0x00,
  0x40, 0x00, 0x00, 0x00, 0x07, 0x00, 0x00, 0x00, 0x00, 0x00, 0x00, 0x00, 0x00, 0x00, 0x00, 0x00,
  0x00, 0x00, 0x00, 0x00, 0x00, 0x00, 0x00, 0x00, 0x00, 0x00, 0x00, 0x00, 0x00, 0x00, 0x00, 0x00,
  0x00, 0x00, 0x00, 0x00, 0x00, 0x00, 0x00, 0x00, 0x00, 0x00, 0x00, 0x00, 0x00, 0x00, 0x00, 0x00,
  0x00, 0x00, 0x00, 0x00, 0x00, 0x00, 0x00, 0x00, 0x00, 0x00, 0x00, 0x00, 0x00, 0x00, 0x00, 0x00,
  0x07, 0x00, 0x00, 0x00, 0xd7, 0x72, 0x74, 0x3c, 0x81, 0x1e, 0x84, 0x3c, 0xd2, 0x60, 0x6a, 0x3c,
  0xd5, 0x47, 0x9b, 0x3c, 0x80, 0xc4, 0x72, 0x3c, 0x5d, 0x9d, 0xa9, 0x3c, 0x57, 0x8e, 0x70, 0x3c,
  0x12, 0x00, 0x00, 0x00, 0x74, 0x66, 0x6c, 0x2e, 0x70, 0x73, 0x65, 0x75, 0x64, 0x6f, 0x5f, 0x71,
  0x63, 0x6f, 0x6e, 0x73, 0x74, 0x31, 0x00, 0x00, 0x02, 0x00, 0x00, 0x00, 0x07, 0x00, 0x00, 0x00,
  0x10, 0x00, 0x00, 0x00, 0x00, 0x00, 0x16, 0x00, 0x1c, 0x00, 0x18, 0x00, 0x17, 0x00, 0x10, 0x00,
  0x0c, 0x00, 0x08, 0x00, 0x00, 0x00, 0x00, 0x00, 0x00, 0x00, 0x07, 0x00, 0x16, 0x00, 0x00, 0x00,
  0x00, 0x00, 0x00, 0x01, 0x14, 0x00, 0x00, 0x00, 0x78, 0x00, 0x00, 0x00, 0x02, 0x00, 0x00, 0x00,
  0x00, 0x00, 0x00, 0x02, 0x84, 0x00, 0x00, 0x00, 0x34, 0xff, 0xff, 0xff, 0x08, 0x00, 0x00, 0x00,
  0x40, 0x00, 0x00, 0x00, 0x07, 0x00, 0x00, 0x00, 0x00, 0x00, 0x00, 0x00, 0x00, 0x00, 0x00, 0x00,
  0x00, 0x00, 0x00, 0x00, 0x00, 0x00, 0x00, 0x00, 0x00, 0x00, 0x00, 0x00, 0x00, 0x00, 0x00, 0x00,
  0x00, 0x00, 0x00, 0x00, 0x00, 0x00, 0x00, 0x00, 0x00, 0x00, 0x00, 0x00, 0x00, 0x00, 0x00, 0x00,
  0x00, 0x00, 0x00, 0x00, 0x00, 0x00, 0x00, 0x00, 0x00, 0x00, 0x00, 0x00, 0x00, 0x00, 0x00, 0x00,
  0x07, 0x00, 0x00, 0x00, 0xbe, 0x32, 0x00, 0x3b, 0xa2, 0x93, 0x0a, 0x3b, 0x76, 0xd5, 0xf5, 0x3a,
  0xc5, 0xde, 0x22, 0x3b, 0x1c, 0xa2, 0xfe, 0x3a, 0xa7, 0xe7, 0x31, 0x3b, 0x47, 0x50, 0xfc, 0x3a,
  0x11, 0x00, 0x00, 0x00, 0x74, 0x66, 0x6c, 0x2e, 0x70, 0x73, 0x65, 0x75, 0x64, 0x6f, 0x5f, 0x71,
  0x63, 0x6f, 0x6e, 0x73, 0x74, 0x00, 0x00, 0x00, 0x01, 0x00, 0x00, 0x00, 0x07, 0x00, 0x00, 0x00,
  0x00, 0x00, 0x16, 0x00, 0x20, 0x00, 0x1c, 0x00, 0x1b, 0x00, 0x14, 0x00, 0x10, 0x00, 0x0c, 0x00,
  0x00, 0x00, 0x00, 0x00, 0x08, 0x00, 0x07, 0x00, 0x16, 0x00, 0x00, 0x00, 0x00, 0x00, 0x00, 0x01,
  0x18, 0x00, 0x00, 0x00, 0x2c, 0x00, 0x00, 0x00, 0x48, 0x00, 0x00, 0x00, 0x01, 0x00, 0x00, 0x00,
  0x00, 0x00, 0x00, 0x09, 0x60, 0x00, 0x00, 0x00, 0x02, 0x00, 0x00, 0x00, 0xff, 0xff, 0xff, 0xff,
  0x09, 0x00, 0x00, 0x00, 0x0c, 0x00, 0x0c, 0x00, 0x00, 0x00, 0x00, 0x00, 0x08, 0x00, 0x04, 0x00,
  0x0c, 0x00, 0x00, 0x00, 0x08, 0x00, 0x00, 0x00, 0x10, 0x00, 0x00, 0x00, 0x01, 0x00, 0x00, 0x00,
  0x0d, 0x00, 0x00, 0x00, 0x00, 0x00, 0x00, 0x00, 0x01, 0x00, 0x00, 0x00, 0xfc, 0x75, 0x2a, 0x3d,
  0x1e, 0x00, 0x00, 0x00, 0x73, 0x65, 0x72, 0x76, 0x69, 0x6e, 0x67, 0x5f, 0x64, 0x65, 0x66, 0x61,
  0x75, 0x6c, 0x74, 0x5f, 0x6b, 0x65, 0x72, 0x61, 0x73, 0x5f, 0x74, 0x65, 0x6e, 0x73, 0x6f, 0x72,
  0x3a, 0x30, 0x00, 0x00, 0x02, 0x00, 0x00, 0x00, 0x01, 0x00, 0x00, 0x00, 0x09, 0x00, 0x00, 0x00,
  0x02, 0x00, 0x00, 0x00, 0x24, 0x00, 0x00, 0x00, 0x04, 0x00, 0x00, 0x00, 0xf0, 0xff, 0xff, 0xff,
  0x19, 0x00, 0x00, 0x00, 0x02, 0x00, 0x00, 0x00, 0x00, 0x00, 0x00, 0x19, 0x0c, 0x00, 0x10, 0x00,
  0x0f, 0x00, 0x00, 0x00, 0x08, 0x00, 0x04, 0x00, 0x0c, 0x00, 0x00, 0x00, 0x09, 0x00, 0x00, 0x00,
  0x04, 0x00, 0x00, 0x00, 0x00, 0x00, 0x00, 0x09

};

const unsigned int ups_model_data_len = 4824;

#endif // UPS_AI_MODEL_H
